WIDTH=8;
DEPTH=64;
ADDRESS_RADIX=UNS;
DATA_RADIX=HEX;

CONTENT BEGIN
	0	:	00;
	1	:	00;
	2	:	00;
	3	:	1E;
	4	:	00;
	5	:	49;
	6	:	00;
	7	:	01;
	8	:	27;
	9	:	39;
	10	:	0E;
	11	:	1C;
	12	:	00;
	13	:	00;
	14	:	00;
	15	:	00;
	16	:	0A;
	17	:	00;
	18	:	00;
	19	:	00;
	20	:	1F;
	21	:	0E;
	22	:	15;
	23	:	07;
	24	:	1D;
	25	:	12;
	26	:	00;
	27	:	12;
	28	:	00;
	29	:	00;
	30	:	22;
	31	:	87;
	32	:	0C;
	33	:	00;
	34	:	00;
	35	:	04;
	36	:	00;
	37	:	00;
	38	:	00;
	39	:	00;
	40	:	57;
	41	:	2C;
	42	:	05;
	43	:	00;
	44	:	4C;
	45	:	00;
	46	:	17;
	47	:	00;
	48	:	00;
	49	:	00;
	50	:	33;
	51	:	A7;
	52	:	00;
	53	:	00;
	54	:	00;
	55	:	00;
	56	:	1D;
	57	:	00;
	58	:	05;
	59	:	45;
	60	:	2A;
	61	:	12;
	62	:	00;
	63	:	01;
END;
