WIDTH = 8;
DEPTH = 67;
ADDRESS_RADIX = UNS;
DATA_RADIX = HEX;

CONTENT BEGIN
	0	:	08;
	1	:	08;
	2	:	08;
	3	:	1A;
	4	:	15;
	5	:	15;
	6	:	17;
	7	:	17;
	8	:	0F;
	9	:	0B;
	10	:	0B;
	11	:	-1;
	12	:	02;
	13	:	20;
	14	:	23;
	15	:	19;
	16	:	1D;
	17	:	29;
	18	:	21;
	19	:	-D;
	20	:	03;
	21	:	02;
	22	:	16;
	23	:	25;
	24	:	28;
	25	:	16;
	26	:	00;
	27	:	-2;
	28	:	-1;
	29	:	06;
	30	:	0B;
	31	:	0B;
	32	:	0D;
	33	:	0B;
	34	:	0C;
	35	:	29;
	36	:	0D;
	37	:	48;
	38	:	1F;
	39	:	0E;
	40	:	-5;
	41	:	-10;
	42	:	-1C;
	43	:	30;
	44	:	-1A;
	45	:	38;
	46	:	-9;
	47	:	10;
	48	:	-2;
	49	:	-11;
	50	:	-10;
	51	:	-B;
	52	:	-13;
	53	:	03;
	54	:	09;
	55	:	1D;
	56	:	28;
	57	:	29;
	58	:	1B;
	59	:	-14;
	60	:	-1A;
	61	:	-12;
	62	:	-22;
	63	:	-1E;
	64	:	-F;
	65	:	-3;
	66	:	-1;
END;
