WIDTH = 8;
DEPTH = 67;
ADDRESS_RADIX = UNS;
DATA_RADIX = HEX;

CONTENT BEGIN
	0	:	04;
	1	:	08;
	2	:	08;
	3	:	1A;
	4	:	15;
	5	:	15;
	6	:	17;
	7	:	17;
	8	:	0F;
	9	:	0B;
	10	:	0B;
	11	:	FF;
	12	:	02;
	13	:	20;
	14	:	23;
	15	:	19;
	16	:	1D;
	17	:	29;
	18	:	21;
	19	:	F3;
	20	:	03;
	21	:	02;
	22	:	16;
	23	:	25;
	24	:	28;
	25	:	16;
	26	:	00;
	27	:	FE;
	28	:	FF;
	29	:	06;
	30	:	0B;
	31	:	0B;
	32	:	0D;
	33	:	0B;
	34	:	0C;
	35	:	29;
	36	:	0D;
	37	:	48;
	38	:	1F;
	39	:	0E;
	40	:	FB;
	41	:	F0;
	42	:	E4;
	43	:	30;
	44	:	E6;
	45	:	38;
	46	:	F7;
	47	:	10;
	48	:	FE;
	49	:	EF;
	50	:	F0;
	51	:	F5;
	52	:	ED;
	53	:	03;
	54	:	09;
	55	:	1D;
	56	:	28;
	57	:	29;
	58	:	1B;
	59	:	EC;
	60	:	E6;
	61	:	EE;
	62	:	DE;
	63	:	E2;
	64	:	F1;
	65	:	FD;
	66	:	FF;
END;
