WIDTH = 8;
DEPTH = 67;
ADDRESS_RADIX = UNS;
DATA_RADIX = HEX;

CONTENT BEGIN
	0	:	06;
	1	:	08;
	2	:	08;
	3	:	0C;
	4	:	05;
	5	:	0B;
	6	:	11;
	7	:	09;
	8	:	0C;
	9	:	11;
	10	:	10;
	11	:	29;
	12	:	11;
	13	:	0D;
	14	:	F8;
	15	:	FD;
	16	:	0C;
	17	:	0D;
	18	:	1A;
	19	:	E9;
	20	:	E5;
	21	:	CC;
	22	:	EA;
	23	:	FD;
	24	:	F8;
	25	:	11;
	26	:	29;
	27	:	0B;
	28	:	05;
	29	:	FE;
	30	:	01;
	31	:	F6;
	32	:	F1;
	33	:	F1;
	34	:	F4;
	35	:	D1;
	36	:	BA;
	37	:	DB;
	38	:	17;
	39	:	09;
	40	:	42;
	41	:	1F;
	42	:	0A;
	43	:	02;
	44	:	CD;
	45	:	F7;
	46	:	FA;
	47	:	D7;
	48	:	04;
	49	:	F2;
	50	:	03;
	51	:	02;
	52	:	F7;
	53	:	EB;
	54	:	F6;
	55	:	F4;
	56	:	05;
	57	:	05;
	58	:	0C;
	59	:	F9;
	60	:	05;
	61	:	FD;
	62	:	FF;
	63	:	F6;
	64	:	F5;
	65	:	DE;
	66	:	E5;
END;
