WIDTH = 8;
DEPTH = 67;
ADDRESS_RADIX = UNS;
DATA_RADIX = HEX;

CONTENT BEGIN
	0	:	08;
	1	:	08;
	2	:	08;
	3	:	0C;
	4	:	05;
	5	:	0B;
	6	:	11;
	7	:	09;
	8	:	0C;
	9	:	11;
	10	:	10;
	11	:	29;
	12	:	11;
	13	:	0D;
	14	:	-8;
	15	:	-3;
	16	:	0C;
	17	:	0D;
	18	:	1A;
	19	:	-17;
	20	:	-1B;
	21	:	-34;
	22	:	-16;
	23	:	-3;
	24	:	-8;
	25	:	11;
	26	:	29;
	27	:	0B;
	28	:	05;
	29	:	-2;
	30	:	01;
	31	:	-A;
	32	:	-F;
	33	:	-F;
	34	:	-C;
	35	:	-2F;
	36	:	-46;
	37	:	-25;
	38	:	17;
	39	:	09;
	40	:	42;
	41	:	1F;
	42	:	0A;
	43	:	02;
	44	:	-33;
	45	:	-9;
	46	:	-6;
	47	:	-29;
	48	:	04;
	49	:	-E;
	50	:	03;
	51	:	02;
	52	:	-9;
	53	:	-15;
	54	:	-A;
	55	:	-C;
	56	:	05;
	57	:	05;
	58	:	0C;
	59	:	-7;
	60	:	05;
	61	:	-3;
	62	:	-1;
	63	:	-A;
	64	:	-B;
	65	:	-22;
	66	:	-1B;
END;
