WIDTH=8;
DEPTH=64;
ADDRESS_RADIX=UNS;
DATA_RADIX=HEX;

CONTENT BEGIN
	0	:	00;
	1	:	00;
	2	:	0A;
	3	:	00;
	4	:	00;
	5	:	00;
	6	:	00;
	7	:	10;
	8	:	00;
	9	:	00;
	10	:	00;
	11	:	00;
	12	:	00;
	13	:	00;
	14	:	00;
	15	:	00;
	16	:	00;
	17	:	06;
	18	:	00;
	19	:	00;
	20	:	10;
	21	:	07;
	22	:	01;
	23	:	00;
	24	:	27;
	25	:	03;
	26	:	17;
	27	:	09;
	28	:	3A;
	29	:	15;
	30	:	1B;
	31	:	0D;
	32	:	00;
	33	:	00;
	34	:	00;
	35	:	00;
	36	:	00;
	37	:	00;
	38	:	00;
	39	:	00;
	40	:	03;
	41	:	23;
	42	:	27;
	43	:	2B;
	44	:	16;
	45	:	0D;
	46	:	00;
	47	:	10;
	48	:	2C;
	49	:	29;
	50	:	47;
	51	:	41;
	52	:	10;
	53	:	00;
	54	:	39;
	55	:	00;
	56	:	00;
	57	:	1A;
	58	:	00;
	59	:	00;
	60	:	04;
	61	:	21;
	62	:	27;
	63	:	21;
END;
