WIDTH=8;
DEPTH=64;
ADDRESS_RADIX=UNS;
DATA_RADIX=HEX;

CONTENT BEGIN
	0	:	00;
	1	:	1E;
	2	:	00;
	3	:	00;
	4	:	0C;
	5	:	00;
	6	:	00;
	7	:	02;
	8	:	14;
	9	:	19;
	10	:	1D;
	11	:	34;
	12	:	22;
	13	:	40;
	14	:	0D;
	15	:	0E;
	16	:	00;
	17	:	00;
	18	:	00;
	19	:	06;
	20	:	06;
	21	:	1D;
	22	:	00;
	23	:	00;
	24	:	18;
	25	:	00;
	26	:	0E;
	27	:	06;
	28	:	00;
	29	:	22;
	30	:	02;
	31	:	01;
	32	:	12;
	33	:	15;
	34	:	03;
	35	:	00;
	36	:	1D;
	37	:	13;
	38	:	09;
	39	:	19;
	40	:	2D;
	41	:	0D;
	42	:	30;
	43	:	06;
	44	:	1B;
	45	:	00;
	46	:	0B;
	47	:	1C;
	48	:	00;
	49	:	00;
	50	:	00;
	51	:	0C;
	52	:	1F;
	53	:	25;
	54	:	00;
	55	:	19;
	56	:	00;
	57	:	00;
	58	:	16;
	59	:	18;
	60	:	00;
	61	:	00;
	62	:	14;
	63	:	00;
END;
