WIDTH = 8;
DEPTH = 67;
ADDRESS_RADIX = UNS;
DATA_RADIX = HEX;

CONTENT BEGIN
	0	:	00;
	1	:	08;
	2	:	08;
	3	:	0C;
	4	:	0C;
	5	:	0C;
	6	:	0B;
	7	:	0B;
	8	:	06;
	9	:	0A;
	10	:	02;
	11	:	12;
	12	:	15;
	13	:	12;
	14	:	12;
	15	:	0D;
	16	:	EE;
	17	:	EF;
	18	:	D7;
	19	:	F4;
	20	:	19;
	21	:	43;
	22	:	63;
	23	:	70;
	24	:	5C;
	25	:	34;
	26	:	08;
	27	:	ED;
	28	:	DA;
	29	:	C7;
	30	:	C1;
	31	:	C0;
	32	:	C9;
	33	:	D4;
	34	:	E5;
	35	:	61;
	36	:	3D;
	37	:	17;
	38	:	F2;
	39	:	DC;
	40	:	CE;
	41	:	C4;
	42	:	B1;
	43	:	30;
	44	:	08;
	45	:	08;
	46	:	05;
	47	:	FD;
	48	:	E5;
	49	:	FF;
	50	:	D4;
	51	:	14;
	52	:	13;
	53	:	13;
	54	:	0F;
	55	:	04;
	56	:	ED;
	57	:	E3;
	58	:	E8;
	59	:	03;
	60	:	E9;
	61	:	D2;
	62	:	DD;
	63	:	DF;
	64	:	EF;
	65	:	00;
	66	:	0E;
END;
