WIDTH = 8;
DEPTH = 67;
ADDRESS_RADIX = UNS;
DATA_RADIX = HEX;

CONTENT BEGIN
	0	:	05;
	1	:	08;
	2	:	08;
	3	:	10;
	4	:	0C;
	5	:	06;
	6	:	06;
	7	:	FD;
	8	:	01;
	9	:	11;
	10	:	09;
	11	:	16;
	12	:	1F;
	13	:	15;
	14	:	24;
	15	:	0B;
	16	:	10;
	17	:	02;
	18	:	FF;
	19	:	36;
	20	:	2D;
	21	:	12;
	22	:	EE;
	23	:	DC;
	24	:	B7;
	25	:	E0;
	26	:	F6;
	27	:	FD;
	28	:	03;
	29	:	04;
	30	:	04;
	31	:	07;
	32	:	04;
	33	:	02;
	34	:	F7;
	35	:	FC;
	36	:	F0;
	37	:	E5;
	38	:	DA;
	39	:	C8;
	40	:	EA;
	41	:	32;
	42	:	21;
	43	:	04;
	44	:	04;
	45	:	FB;
	46	:	13;
	47	:	FB;
	48	:	0A;
	49	:	3B;
	50	:	FE;
	51	:	06;
	52	:	FF;
	53	:	F3;
	54	:	EE;
	55	:	F2;
	56	:	FA;
	57	:	FF;
	58	:	F5;
	59	:	F9;
	60	:	F6;
	61	:	EE;
	62	:	EE;
	63	:	07;
	64	:	06;
	65	:	F8;
	66	:	F5;
END;
