WIDTH = 8;
DEPTH = 67;
ADDRESS_RADIX = UNS;
DATA_RADIX = HEX;

CONTENT BEGIN
	0	:	08;
	1	:	08;
	2	:	08;
	3	:	10;
	4	:	0C;
	5	:	06;
	6	:	06;
	7	:	-3;
	8	:	01;
	9	:	11;
	10	:	09;
	11	:	16;
	12	:	1F;
	13	:	15;
	14	:	24;
	15	:	0B;
	16	:	10;
	17	:	02;
	18	:	-1;
	19	:	36;
	20	:	2D;
	21	:	12;
	22	:	-12;
	23	:	-24;
	24	:	-49;
	25	:	-20;
	26	:	-A;
	27	:	-3;
	28	:	03;
	29	:	04;
	30	:	04;
	31	:	07;
	32	:	04;
	33	:	02;
	34	:	-9;
	35	:	-4;
	36	:	-10;
	37	:	-1B;
	38	:	-26;
	39	:	-38;
	40	:	-16;
	41	:	32;
	42	:	21;
	43	:	04;
	44	:	04;
	45	:	-5;
	46	:	13;
	47	:	-5;
	48	:	0A;
	49	:	3B;
	50	:	-2;
	51	:	06;
	52	:	-1;
	53	:	-D;
	54	:	-12;
	55	:	-E;
	56	:	-6;
	57	:	-1;
	58	:	-B;
	59	:	-7;
	60	:	-A;
	61	:	-12;
	62	:	-12;
	63	:	07;
	64	:	06;
	65	:	-8;
	66	:	-B;
END;
