WIDTH=8;
DEPTH=64;
ADDRESS_RADIX=UNS;
DATA_RADIX=HEX;

CONTENT BEGIN
	0	:	5C;
	1	:	AC;
	2	:	AF;
	3	:	1E;
	4	:	51;
	5	:	49;
	6	:	BC;
	7	:	01;
	8	:	27;
	9	:	39;
	10	:	0E;
	11	:	1C;
	12	:	59;
	13	:	00;
	14	:	FA;
	15	:	82;
	16	:	0A;
	17	:	00;
	18	:	C7;
	19	:	5A;
	20	:	1F;
	21	:	0E;
	22	:	15;
	23	:	07;
	24	:	1D;
	25	:	12;
	26	:	00;
	27	:	12;
	28	:	09;
	29	:	F2;
	30	:	22;
	31	:	87;
	32	:	0C;
	33	:	00;
	34	:	54;
	35	:	04;
	36	:	00;
	37	:	08;
	38	:	00;
	39	:	32;
	40	:	57;
	41	:	2C;
	42	:	05;
	43	:	0E;
	44	:	4C;
	45	:	84;
	46	:	17;
	47	:	3C;
	48	:	FD;
	49	:	00;
	50	:	33;
	51	:	A7;
	52	:	68;
	53	:	6F;
	54	:	35;
	55	:	A4;
	56	:	1D;
	57	:	CE;
	58	:	05;
	59	:	45;
	60	:	2A;
	61	:	12;
	62	:	23;
	63	:	01;
END;
