WIDTH=8;
DEPTH=28;
ADDRESS_RADIX=UNS;
DATA_RADIX=HEX;

CONTENT BEGIN
	0	:	00;
	1	:	00;
	2	:	00;
	3	:	00;
	4	:	0A;
	5	:	1F;
	6	:	00;
	7	:	00;
	8	:	1D;
	9	:	00;
	10	:	00;
	11	:	00;
	12	:	0C;
	13	:	00;
	14	:	00;
	15	:	00;
	16	:	00;
	17	:	4C;
	18	:	17;
	19	:	00;
	20	:	00;
	21	:	00;
	22	:	00;
	23	:	00;
	24	:	00;
	25	:	00;
	26	:	00;
	27	:	01;
END;
