WIDTH=8;
DEPTH=64;
ADDRESS_RADIX=UNS;
DATA_RADIX=HEX;

CONTENT BEGIN
	0	:	00;
	1	:	00;
	2	:	00;
	3	:	00;
	4	:	05;
	5	:	0C;
	6	:	00;
	7	:	03;
	8	:	00;
	9	:	00;
	10	:	00;
	11	:	00;
	12	:	00;
	13	:	00;
	14	:	00;
	15	:	00;
	16	:	02;
	17	:	10;
	18	:	00;
	19	:	00;
	20	:	00;
	21	:	00;
	22	:	1A;
	23	:	00;
	24	:	23;
	25	:	2F;
	26	:	09;
	27	:	00;
	28	:	0C;
	29	:	09;
	30	:	00;
	31	:	04;
	32	:	00;
	33	:	00;
	34	:	00;
	35	:	00;
	36	:	00;
	37	:	00;
	38	:	00;
	39	:	00;
	40	:	00;
	41	:	0D;
	42	:	09;
	43	:	26;
	44	:	26;
	45	:	20;
	46	:	00;
	47	:	06;
	48	:	00;
	49	:	24;
	50	:	0D;
	51	:	14;
	52	:	13;
	53	:	3F;
	54	:	28;
	55	:	2A;
	56	:	3E;
	57	:	03;
	58	:	14;
	59	:	00;
	60	:	29;
	61	:	00;
	62	:	00;
	63	:	00;
END;
