WIDTH=8;
DEPTH=64;
ADDRESS_RADIX=UNS;
DATA_RADIX=HEX;

CONTENT BEGIN
	0	:	00;
	1	:	13;
	2	:	00;
	3	:	00;
	4	:	00;
	5	:	00;
	6	:	00;
	7	:	12;
	8	:	00;
	9	:	00;
	10	:	00;
	11	:	00;
	12	:	00;
	13	:	0A;
	14	:	07;
	15	:	07;
	16	:	00;
	17	:	00;
	18	:	00;
	19	:	00;
	20	:	00;
	21	:	0C;
	22	:	00;
	23	:	00;
	24	:	01;
	25	:	1E;
	26	:	1A;
	27	:	07;
	28	:	06;
	29	:	3B;
	30	:	12;
	31	:	18;
	32	:	00;
	33	:	00;
	34	:	00;
	35	:	00;
	36	:	00;
	37	:	00;
	38	:	05;
	39	:	00;
	40	:	00;
	41	:	38;
	42	:	09;
	43	:	00;
	44	:	00;
	45	:	10;
	46	:	02;
	47	:	00;
	48	:	5A;
	49	:	4B;
	50	:	1E;
	51	:	23;
	52	:	1B;
	53	:	2B;
	54	:	35;
	55	:	16;
	56	:	1E;
	57	:	27;
	58	:	00;
	59	:	1F;
	60	:	09;
	61	:	0C;
	62	:	00;
	63	:	00;
END;
