WIDTH=8;
DEPTH=56;
ADDRESS_RADIX=UNS;
DATA_RADIX=HEX;

CONTENT BEGIN
	0	:	00;
	1	:	00;
	2	:	00;
	3	:	00;
	4	:	00;
	5	:	00;
	6	:	01;
	7	:	27;
	8	:	39;
	9	:	0E;
	10	:	1C;
	11	:	00;
	12	:	00;
	13	:	00;
	14	:	0A;
	15	:	00;
	16	:	00;
	17	:	00;
	18	:	1F;
	19	:	00;
	20	:	00;
	21	:	1D;
	22	:	00;
	23	:	00;
	24	:	12;
	25	:	00;
	26	:	00;
	27	:	00;
	28	:	0C;
	29	:	00;
	30	:	00;
	31	:	04;
	32	:	00;
	33	:	00;
	34	:	00;
	35	:	00;
	36	:	2C;
	37	:	05;
	38	:	00;
	39	:	4C;
	40	:	17;
	41	:	00;
	42	:	00;
	43	:	00;
	44	:	00;
	45	:	00;
	46	:	00;
	47	:	00;
	48	:	00;
	49	:	1D;
	50	:	00;
	51	:	05;
	52	:	45;
	53	:	2A;
	54	:	00;
	55	:	01;
END;
