WIDTH = 8;
DEPTH = 67;
ADDRESS_RADIX = UNS;
DATA_RADIX = HEX;

CONTENT BEGIN
	0	:	04;
	1	:	08;
	2	:	08;
	3	:	08;
	4	:	0A;
	5	:	00;
	6	:	01;
	7	:	13;
	8	:	11;
	9	:	10;
	10	:	13;
	11	:	DA;
	12	:	D1;
	13	:	C0;
	14	:	28;
	15	:	03;
	16	:	F6;
	17	:	0C;
	18	:	0F;
	19	:	7C;
	20	:	59;
	21	:	23;
	22	:	E0;
	23	:	C5;
	24	:	D3;
	25	:	C5;
	26	:	D6;
	27	:	01;
	28	:	F3;
	29	:	F0;
	30	:	F4;
	31	:	FC;
	32	:	FC;
	33	:	09;
	34	:	1E;
	35	:	CD;
	36	:	C6;
	37	:	B0;
	38	:	D3;
	39	:	39;
	40	:	37;
	41	:	7F;
	42	:	4C;
	43	:	F5;
	44	:	02;
	45	:	E7;
	46	:	03;
	47	:	2B;
	48	:	EA;
	49	:	1E;
	50	:	FF;
	51	:	E2;
	52	:	DF;
	53	:	F1;
	54	:	18;
	55	:	07;
	56	:	06;
	57	:	26;
	58	:	0E;
	59	:	30;
	60	:	47;
	61	:	43;
	62	:	1A;
	63	:	F8;
	64	:	00;
	65	:	E7;
	66	:	AE;
END;
