WIDTH=8;
DEPTH=64;
ADDRESS_RADIX=UNS;
DATA_RADIX=HEX;

CONTENT BEGIN
	0	:	0D;
	1	:	13;
	2	:	2A;
	3	:	1E;
	4	:	2D;
	5	:	06;
	6	:	13;
	7	:	00;
	8	:	04;
	9	:	06;
	10	:	08;
	11	:	00;
	12	:	04;
	13	:	19;
	14	:	0E;
	15	:	2D;
	16	:	00;
	17	:	00;
	18	:	00;
	19	:	00;
	20	:	00;
	21	:	00;
	22	:	00;
	23	:	00;
	24	:	00;
	25	:	04;
	26	:	00;
	27	:	06;
	28	:	00;
	29	:	08;
	30	:	1D;
	31	:	11;
	32	:	00;
	33	:	0F;
	34	:	0E;
	35	:	16;
	36	:	08;
	37	:	00;
	38	:	21;
	39	:	23;
	40	:	00;
	41	:	00;
	42	:	03;
	43	:	2A;
	44	:	00;
	45	:	00;
	46	:	00;
	47	:	0E;
	48	:	1B;
	49	:	27;
	50	:	47;
	51	:	0A;
	52	:	00;
	53	:	00;
	54	:	1A;
	55	:	0B;
	56	:	00;
	57	:	26;
	58	:	43;
	59	:	09;
	60	:	00;
	61	:	2F;
	62	:	00;
	63	:	00;
END;
