WIDTH = 8;
DEPTH = 67;
ADDRESS_RADIX = UNS;
DATA_RADIX = HEX;

CONTENT BEGIN
	0	:	03;
	1	:	08;
	2	:	08;
	3	:	16;
	4	:	16;
	5	:	18;
	6	:	10;
	7	:	08;
	8	:	FE;
	9	:	F6;
	10	:	F8;
	11	:	FC;
	12	:	0C;
	13	:	1C;
	14	:	FE;
	15	:	E8;
	16	:	06;
	17	:	EA;
	18	:	D4;
	19	:	CD;
	20	:	B4;
	21	:	C0;
	22	:	D9;
	23	:	FE;
	24	:	2E;
	25	:	60;
	26	:	6B;
	27	:	EE;
	28	:	D9;
	29	:	CF;
	30	:	C6;
	31	:	CE;
	32	:	E1;
	33	:	F4;
	34	:	0C;
	35	:	35;
	36	:	7D;
	37	:	56;
	38	:	16;
	39	:	E8;
	40	:	D8;
	41	:	C1;
	42	:	B5;
	43	:	EB;
	44	:	2E;
	45	:	09;
	46	:	04;
	47	:	FC;
	48	:	F4;
	49	:	F3;
	50	:	01;
	51	:	0F;
	52	:	1D;
	53	:	01;
	54	:	F9;
	55	:	E9;
	56	:	CA;
	57	:	CC;
	58	:	FB;
	59	:	EA;
	60	:	E0;
	61	:	A5;
	62	:	80;
	63	:	A1;
	64	:	EF;
	65	:	24;
	66	:	18;
END;
