WIDTH = 8;
DEPTH = 67;
ADDRESS_RADIX = UNS;
DATA_RADIX = HEX;

CONTENT BEGIN
	0	:	08;
	1	:	08;
	2	:	08;
	3	:	0C;
	4	:	0C;
	5	:	0C;
	6	:	0B;
	7	:	0B;
	8	:	06;
	9	:	0A;
	10	:	02;
	11	:	12;
	12	:	15;
	13	:	12;
	14	:	12;
	15	:	0D;
	16	:	-12;
	17	:	-11;
	18	:	-29;
	19	:	-C;
	20	:	19;
	21	:	43;
	22	:	63;
	23	:	70;
	24	:	5C;
	25	:	34;
	26	:	08;
	27	:	-13;
	28	:	-26;
	29	:	-39;
	30	:	-3F;
	31	:	-40;
	32	:	-37;
	33	:	-2C;
	34	:	-1B;
	35	:	61;
	36	:	3D;
	37	:	17;
	38	:	-E;
	39	:	-24;
	40	:	-32;
	41	:	-3C;
	42	:	-4F;
	43	:	30;
	44	:	08;
	45	:	08;
	46	:	05;
	47	:	-3;
	48	:	-1B;
	49	:	-1;
	50	:	-2C;
	51	:	14;
	52	:	13;
	53	:	13;
	54	:	0F;
	55	:	04;
	56	:	-13;
	57	:	-1D;
	58	:	-18;
	59	:	03;
	60	:	-17;
	61	:	-2E;
	62	:	-23;
	63	:	-21;
	64	:	-11;
	65	:	00;
	66	:	0E;
END;
