WIDTH = 8;
DEPTH = 67;
ADDRESS_RADIX = UNS;
DATA_RADIX = HEX;

CONTENT BEGIN
	0	:	05;
	1	:	08;
	2	:	08;
	3	:	15;
	4	:	0F;
	5	:	07;
	6	:	05;
	7	:	05;
	8	:	FE;
	9	:	F8;
	10	:	15;
	11	:	01;
	12	:	F2;
	13	:	EC;
	14	:	C9;
	15	:	CB;
	16	:	B8;
	17	:	2B;
	18	:	0D;
	19	:	FD;
	20	:	2C;
	21	:	5B;
	22	:	7F;
	23	:	76;
	24	:	46;
	25	:	F8;
	26	:	C7;
	27	:	36;
	28	:	51;
	29	:	5B;
	30	:	59;
	31	:	49;
	32	:	2C;
	33	:	1B;
	34	:	F8;
	35	:	12;
	36	:	E7;
	37	:	D5;
	38	:	C9;
	39	:	BB;
	40	:	A8;
	41	:	CC;
	42	:	32;
	43	:	05;
	44	:	02;
	45	:	F3;
	46	:	E2;
	47	:	01;
	48	:	E1;
	49	:	EE;
	50	:	2D;
	51	:	06;
	52	:	01;
	53	:	E3;
	54	:	D6;
	55	:	E7;
	56	:	00;
	57	:	1F;
	58	:	11;
	59	:	82;
	60	:	A8;
	61	:	07;
	62	:	4F;
	63	:	5A;
	64	:	3D;
	65	:	12;
	66	:	EB;
END;
