-- Combined MIF file

WIDTH = 8;
DEPTH = 603;
ADDRESS_RADIX = UNS;
DATA_RADIX = HEX;

CONTENT BEGIN
	0	:	00;	-- Tile 0 Start
	1	:	08;
	2	:	08;
	3	:	1A;
	4	:	15;
	5	:	15;
	6	:	17;
	7	:	17;
	8	:	0F;
	9	:	0B;
	10	:	0B;
	11	:	FF;
	12	:	02;
	13	:	20;
	14	:	23;
	15	:	19;
	16	:	1D;
	17	:	29;
	18	:	21;
	19	:	F3;
	20	:	03;
	21	:	02;
	22	:	16;
	23	:	25;
	24	:	28;
	25	:	16;
	26	:	00;
	27	:	FE;
	28	:	FF;
	29	:	06;
	30	:	0B;
	31	:	0B;
	32	:	0D;
	33	:	0B;
	34	:	0C;
	35	:	29;
	36	:	0D;
	37	:	48;
	38	:	1F;
	39	:	0E;
	40	:	FB;
	41	:	F0;
	42	:	E4;
	43	:	30;
	44	:	E6;
	45	:	38;
	46	:	F7;
	47	:	10;
	48	:	FE;
	49	:	EF;
	50	:	F0;
	51	:	F5;
	52	:	ED;
	53	:	03;
	54	:	09;
	55	:	1D;
	56	:	28;
	57	:	29;
	58	:	1B;
	59	:	EC;
	60	:	E6;
	61	:	EE;
	62	:	DE;
	63	:	E2;
	64	:	F1;
	65	:	FD;
	66	:	FF;	-- Tile 0 End
	67	:	01;	-- Tile 1 Start
	68	:	08;
	69	:	08;
	70	:	03;
	71	:	10;
	72	:	0C;
	73	:	0E;
	74	:	0E;
	75	:	0D;
	76	:	09;
	77	:	0A;
	78	:	11;
	79	:	04;
	80	:	0D;
	81	:	14;
	82	:	1B;
	83	:	19;
	84	:	14;
	85	:	01;
	86	:	D6;
	87	:	D0;
	88	:	E0;
	89	:	DC;
	90	:	FA;
	91	:	29;
	92	:	57;
	93	:	79;
	94	:	EE;
	95	:	11;
	96	:	1B;
	97	:	2C;
	98	:	39;
	99	:	36;
	100	:	27;
	101	:	13;
	102	:	D0;
	103	:	30;
	104	:	2E;
	105	:	73;
	106	:	42;
	107	:	11;
	108	:	E9;
	109	:	D4;
	110	:	EC;
	111	:	1B;
	112	:	E0;
	113	:	1A;
	114	:	F9;
	115	:	04;
	116	:	09;
	117	:	FF;
	118	:	05;
	119	:	FC;
	120	:	F8;
	121	:	18;
	122	:	16;
	123	:	11;
	124	:	06;
	125	:	F3;
	126	:	09;
	127	:	FF;
	128	:	FF;
	129	:	06;
	130	:	E2;
	131	:	B0;
	132	:	BA;
	133	:	F0;	-- Tile 1 End
	134	:	02;	-- Tile 2 Start
	135	:	08;
	136	:	08;
	137	:	08;
	138	:	0A;
	139	:	00;
	140	:	01;
	141	:	13;
	142	:	11;
	143	:	10;
	144	:	13;
	145	:	DA;
	146	:	D1;
	147	:	C0;
	148	:	28;
	149	:	03;
	150	:	F6;
	151	:	0C;
	152	:	0F;
	153	:	7C;
	154	:	59;
	155	:	23;
	156	:	E0;
	157	:	C5;
	158	:	D3;
	159	:	C5;
	160	:	D6;
	161	:	01;
	162	:	F3;
	163	:	F0;
	164	:	F4;
	165	:	FC;
	166	:	FC;
	167	:	09;
	168	:	1E;
	169	:	CD;
	170	:	C6;
	171	:	B0;
	172	:	D3;
	173	:	39;
	174	:	37;
	175	:	7F;
	176	:	4C;
	177	:	F5;
	178	:	02;
	179	:	E7;
	180	:	03;
	181	:	2B;
	182	:	EA;
	183	:	1E;
	184	:	FF;
	185	:	E2;
	186	:	DF;
	187	:	F1;
	188	:	18;
	189	:	07;
	190	:	06;
	191	:	26;
	192	:	0E;
	193	:	30;
	194	:	47;
	195	:	43;
	196	:	1A;
	197	:	F8;
	198	:	00;
	199	:	E7;
	200	:	AE;	-- Tile 2 End
	201	:	03;	-- Tile 3 Start
	202	:	08;
	203	:	08;
	204	:	16;
	205	:	16;
	206	:	18;
	207	:	10;
	208	:	08;
	209	:	FE;
	210	:	F6;
	211	:	F8;
	212	:	FC;
	213	:	0C;
	214	:	1C;
	215	:	FE;
	216	:	E8;
	217	:	06;
	218	:	EA;
	219	:	D4;
	220	:	CD;
	221	:	B4;
	222	:	C0;
	223	:	D9;
	224	:	FE;
	225	:	2E;
	226	:	60;
	227	:	6B;
	228	:	EE;
	229	:	D9;
	230	:	CF;
	231	:	C6;
	232	:	CE;
	233	:	E1;
	234	:	F4;
	235	:	0C;
	236	:	35;
	237	:	7D;
	238	:	56;
	239	:	16;
	240	:	E8;
	241	:	D8;
	242	:	C1;
	243	:	B5;
	244	:	EB;
	245	:	2E;
	246	:	09;
	247	:	04;
	248	:	FC;
	249	:	F4;
	250	:	F3;
	251	:	01;
	252	:	0F;
	253	:	1D;
	254	:	01;
	255	:	F9;
	256	:	E9;
	257	:	CA;
	258	:	CC;
	259	:	FB;
	260	:	EA;
	261	:	E0;
	262	:	A5;
	263	:	80;
	264	:	A1;
	265	:	EF;
	266	:	24;
	267	:	18;	-- Tile 3 End
	268	:	04;	-- Tile 4 Start
	269	:	08;
	270	:	08;
	271	:	1A;
	272	:	15;
	273	:	15;
	274	:	17;
	275	:	17;
	276	:	0F;
	277	:	0B;
	278	:	0B;
	279	:	FF;
	280	:	02;
	281	:	20;
	282	:	23;
	283	:	19;
	284	:	1D;
	285	:	29;
	286	:	21;
	287	:	F3;
	288	:	03;
	289	:	02;
	290	:	16;
	291	:	25;
	292	:	28;
	293	:	16;
	294	:	00;
	295	:	FE;
	296	:	FF;
	297	:	06;
	298	:	0B;
	299	:	0B;
	300	:	0D;
	301	:	0B;
	302	:	0C;
	303	:	29;
	304	:	0D;
	305	:	48;
	306	:	1F;
	307	:	0E;
	308	:	FB;
	309	:	F0;
	310	:	E4;
	311	:	30;
	312	:	E6;
	313	:	38;
	314	:	F7;
	315	:	10;
	316	:	FE;
	317	:	EF;
	318	:	F0;
	319	:	F5;
	320	:	ED;
	321	:	03;
	322	:	09;
	323	:	1D;
	324	:	28;
	325	:	29;
	326	:	1B;
	327	:	EC;
	328	:	E6;
	329	:	EE;
	330	:	DE;
	331	:	E2;
	332	:	F1;
	333	:	FD;
	334	:	FF;	-- Tile 4 End
	335	:	05;	-- Tile 5 Start
	336	:	08;
	337	:	08;
	338	:	10;
	339	:	0C;
	340	:	06;
	341	:	06;
	342	:	FD;
	343	:	01;
	344	:	11;
	345	:	09;
	346	:	16;
	347	:	1F;
	348	:	15;
	349	:	24;
	350	:	0B;
	351	:	10;
	352	:	02;
	353	:	FF;
	354	:	36;
	355	:	2D;
	356	:	12;
	357	:	EE;
	358	:	DC;
	359	:	B7;
	360	:	E0;
	361	:	F6;
	362	:	FD;
	363	:	03;
	364	:	04;
	365	:	04;
	366	:	07;
	367	:	04;
	368	:	02;
	369	:	F7;
	370	:	FC;
	371	:	F0;
	372	:	E5;
	373	:	DA;
	374	:	C8;
	375	:	EA;
	376	:	32;
	377	:	21;
	378	:	04;
	379	:	04;
	380	:	FB;
	381	:	13;
	382	:	FB;
	383	:	0A;
	384	:	3B;
	385	:	FE;
	386	:	06;
	387	:	FF;
	388	:	F3;
	389	:	EE;
	390	:	F2;
	391	:	FA;
	392	:	FF;
	393	:	F5;
	394	:	F9;
	395	:	F6;
	396	:	EE;
	397	:	EE;
	398	:	07;
	399	:	06;
	400	:	F8;
	401	:	F5;	-- Tile 5 End
	402	:	06;	-- Tile 6 Start
	403	:	08;
	404	:	08;
	405	:	0C;
	406	:	05;
	407	:	0B;
	408	:	11;
	409	:	09;
	410	:	0C;
	411	:	11;
	412	:	10;
	413	:	29;
	414	:	11;
	415	:	0D;
	416	:	F8;
	417	:	FD;
	418	:	0C;
	419	:	0D;
	420	:	1A;
	421	:	E9;
	422	:	E5;
	423	:	CC;
	424	:	EA;
	425	:	FD;
	426	:	F8;
	427	:	11;
	428	:	29;
	429	:	0B;
	430	:	05;
	431	:	FE;
	432	:	01;
	433	:	F6;
	434	:	F1;
	435	:	F1;
	436	:	F4;
	437	:	D1;
	438	:	BA;
	439	:	DB;
	440	:	17;
	441	:	09;
	442	:	42;
	443	:	1F;
	444	:	0A;
	445	:	02;
	446	:	CD;
	447	:	F7;
	448	:	FA;
	449	:	D7;
	450	:	04;
	451	:	F2;
	452	:	03;
	453	:	02;
	454	:	F7;
	455	:	EB;
	456	:	F6;
	457	:	F4;
	458	:	05;
	459	:	05;
	460	:	0C;
	461	:	F9;
	462	:	05;
	463	:	FD;
	464	:	FF;
	465	:	F6;
	466	:	F5;
	467	:	DE;
	468	:	E5;	-- Tile 6 End
	469	:	07;	-- Tile 7 Start
	470	:	08;
	471	:	08;
	472	:	10;
	473	:	0C;
	474	:	06;
	475	:	06;
	476	:	FD;
	477	:	01;
	478	:	11;
	479	:	09;
	480	:	16;
	481	:	1F;
	482	:	15;
	483	:	24;
	484	:	0B;
	485	:	10;
	486	:	02;
	487	:	FF;
	488	:	36;
	489	:	2D;
	490	:	12;
	491	:	EE;
	492	:	DC;
	493	:	B7;
	494	:	E0;
	495	:	F6;
	496	:	FD;
	497	:	03;
	498	:	04;
	499	:	04;
	500	:	07;
	501	:	04;
	502	:	02;
	503	:	F7;
	504	:	FC;
	505	:	F0;
	506	:	E5;
	507	:	DA;
	508	:	C8;
	509	:	EA;
	510	:	32;
	511	:	21;
	512	:	04;
	513	:	04;
	514	:	FB;
	515	:	13;
	516	:	FB;
	517	:	0A;
	518	:	3B;
	519	:	FE;
	520	:	06;
	521	:	FF;
	522	:	F3;
	523	:	EE;
	524	:	F2;
	525	:	FA;
	526	:	FF;
	527	:	F5;
	528	:	F9;
	529	:	F6;
	530	:	EE;
	531	:	EE;
	532	:	07;
	533	:	06;
	534	:	F8;
	535	:	F5;	-- Tile 7 End
	536	:	08;	-- Tile 8 Start
	537	:	08;
	538	:	08;
	539	:	0C;
	540	:	05;
	541	:	0B;
	542	:	11;
	543	:	09;
	544	:	0C;
	545	:	11;
	546	:	10;
	547	:	29;
	548	:	11;
	549	:	0D;
	550	:	F8;
	551	:	FD;
	552	:	0C;
	553	:	0D;
	554	:	1A;
	555	:	E9;
	556	:	E5;
	557	:	CC;
	558	:	EA;
	559	:	FD;
	560	:	F8;
	561	:	11;
	562	:	29;
	563	:	0B;
	564	:	05;
	565	:	FE;
	566	:	01;
	567	:	F6;
	568	:	F1;
	569	:	F1;
	570	:	F4;
	571	:	D1;
	572	:	BA;
	573	:	DB;
	574	:	17;
	575	:	09;
	576	:	42;
	577	:	1F;
	578	:	0A;
	579	:	02;
	580	:	CD;
	581	:	F7;
	582	:	FA;
	583	:	D7;
	584	:	04;
	585	:	F2;
	586	:	03;
	587	:	02;
	588	:	F7;
	589	:	EB;
	590	:	F6;
	591	:	F4;
	592	:	05;
	593	:	05;
	594	:	0C;
	595	:	F9;
	596	:	05;
	597	:	FD;
	598	:	FF;
	599	:	F6;
	600	:	F5;
	601	:	DE;
	602	:	E5;	-- Tile 8 End
END;