WIDTH = 8;
DEPTH = 67;
ADDRESS_RADIX = UNS;
DATA_RADIX = HEX;

CONTENT BEGIN
	0	:	08;
	1	:	08;
	2	:	08;
	3	:	08;
	4	:	0A;
	5	:	00;
	6	:	01;
	7	:	13;
	8	:	11;
	9	:	10;
	10	:	13;
	11	:	-26;
	12	:	-2F;
	13	:	-40;
	14	:	28;
	15	:	03;
	16	:	-A;
	17	:	0C;
	18	:	0F;
	19	:	7C;
	20	:	59;
	21	:	23;
	22	:	-20;
	23	:	-3B;
	24	:	-2D;
	25	:	-3B;
	26	:	-2A;
	27	:	01;
	28	:	-D;
	29	:	-10;
	30	:	-C;
	31	:	-4;
	32	:	-4;
	33	:	09;
	34	:	1E;
	35	:	-33;
	36	:	-3A;
	37	:	-50;
	38	:	-2D;
	39	:	39;
	40	:	37;
	41	:	7F;
	42	:	4C;
	43	:	-B;
	44	:	02;
	45	:	-19;
	46	:	03;
	47	:	2B;
	48	:	-16;
	49	:	1E;
	50	:	-1;
	51	:	-1E;
	52	:	-21;
	53	:	-F;
	54	:	18;
	55	:	07;
	56	:	06;
	57	:	26;
	58	:	0E;
	59	:	30;
	60	:	47;
	61	:	43;
	62	:	1A;
	63	:	-8;
	64	:	00;
	65	:	-19;
	66	:	-52;
END;
