WIDTH=8;
DEPTH=40;
ADDRESS_RADIX=UNS;
DATA_RADIX=HEX;

CONTENT BEGIN
	0	:	00;
	1	:	00;
	2	:	00;
	3	:	00;
	4	:	00;
	5	:	00;
	6	:	00;
	7	:	00;
	8	:	00;
	9	:	00;
	10	:	0A;
	11	:	00;
	12	:	1F;
	13	:	00;
	14	:	00;
	15	:	1D;
	16	:	00;
	17	:	00;
	18	:	00;
	19	:	00;
	20	:	0C;
	21	:	00;
	22	:	00;
	23	:	00;
	24	:	00;
	25	:	00;
	26	:	05;
	27	:	4C;
	28	:	17;
	29	:	00;
	30	:	00;
	31	:	00;
	32	:	00;
	33	:	00;
	34	:	00;
	35	:	00;
	36	:	05;
	37	:	2A;
	38	:	00;
	39	:	01;
END;
