WIDTH=32;
DEPTH=16;
ADDRESS_RADIX=HEX;
DATA_RADIX=HEX;

CONTENT BEGIN
	00 : 08070605;
	01 : 04030201;
	02 : 100F0E0D;
	03 : 0C0B0A09;
	04 : 18171615;
	05 : 14131211;
	06 : 201F1E1D;
	07 : 1C1B1A19;
	08 : 28272625;
	09 : 24232221;
	0A : 302F2E2D;
	0B : 2C2B2A29;
	0C : 38373635;
	0D : 34333231;
	0E : 403F3E3D;
	0F : 3C3B3A39;
END;
