WIDTH=32;
DEPTH=16;
ADDRESS_RADIX=HEX;
DATA_RADIX=HEX;

CONTENT BEGIN
	00 : 00000005;
	01 : 00000001;
	02 : 0000000D;
	03 : 00000009;
	04 : 00000015;
	05 : 00000011;
	06 : 0000001D;
	07 : 00000019;
	08 : 00000025;
	09 : 00000021;
	0A : 0000002D;
	0B : 00000029;
	0C : 00000035;
	0D : 00000031;
	0E : 0000003D;
	0F : 00000039;
END;
