WIDTH=8;
DEPTH=64;
ADDRESS_RADIX=UNS;
DATA_RADIX=HEX;

CONTENT BEGIN
	0	:	04;
	1	:	00;
	2	:	08;
	3	:	00;
	4	:	00;
	5	:	00;
	6	:	05;
	7	:	03;
	8	:	00;
	9	:	00;
	10	:	34;
	11	:	00;
	12	:	2F;
	13	:	2D;
	14	:	26;
	15	:	01;
	16	:	00;
	17	:	00;
	18	:	00;
	19	:	00;
	20	:	00;
	21	:	00;
	22	:	00;
	23	:	00;
	24	:	00;
	25	:	00;
	26	:	00;
	27	:	00;
	28	:	31;
	29	:	03;
	30	:	06;
	31	:	00;
	32	:	28;
	33	:	14;
	34	:	0B;
	35	:	29;
	36	:	0E;
	37	:	30;
	38	:	12;
	39	:	00;
	40	:	4C;
	41	:	40;
	42	:	00;
	43	:	1C;
	44	:	00;
	45	:	00;
	46	:	12;
	47	:	3D;
	48	:	30;
	49	:	1E;
	50	:	18;
	51	:	38;
	52	:	00;
	53	:	25;
	54	:	13;
	55	:	01;
	56	:	00;
	57	:	00;
	58	:	3F;
	59	:	18;
	60	:	00;
	61	:	00;
	62	:	00;
	63	:	00;
END;
