WIDTH=8;
DEPTH=64;
ADDRESS_RADIX=UNS;
DATA_RADIX=HEX;

CONTENT BEGIN
	0	:	00;
	1	:	06;
	2	:	00;
	3	:	14;
	4	:	00;
	5	:	00;
	6	:	00;
	7	:	00;
	8	:	01;
	9	:	24;
	10	:	12;
	11	:	17;
	12	:	36;
	13	:	1D;
	14	:	3F;
	15	:	18;
	16	:	00;
	17	:	00;
	18	:	00;
	19	:	0A;
	20	:	00;
	21	:	04;
	22	:	00;
	23	:	0B;
	24	:	0C;
	25	:	00;
	26	:	0A;
	27	:	06;
	28	:	19;
	29	:	07;
	30	:	00;
	31	:	27;
	32	:	33;
	33	:	06;
	34	:	20;
	35	:	06;
	36	:	0C;
	37	:	1E;
	38	:	15;
	39	:	00;
	40	:	00;
	41	:	00;
	42	:	00;
	43	:	00;
	44	:	3A;
	45	:	20;
	46	:	00;
	47	:	17;
	48	:	00;
	49	:	00;
	50	:	00;
	51	:	00;
	52	:	00;
	53	:	00;
	54	:	00;
	55	:	00;
	56	:	00;
	57	:	00;
	58	:	00;
	59	:	06;
	60	:	24;
	61	:	00;
	62	:	00;
	63	:	00;
END;
