WIDTH = 8;
DEPTH = 67;
ADDRESS_RADIX = UNS;
DATA_RADIX = HEX;

CONTENT BEGIN
	0	:	03;
	1	:	08;
	2	:	08;
	3	:	03;
	4	:	10;
	5	:	0C;
	6	:	0E;
	7	:	0E;
	8	:	0D;
	9	:	09;
	10	:	0A;
	11	:	11;
	12	:	04;
	13	:	0D;
	14	:	14;
	15	:	1B;
	16	:	19;
	17	:	14;
	18	:	01;
	19	:	D6;
	20	:	D0;
	21	:	E0;
	22	:	DC;
	23	:	FA;
	24	:	29;
	25	:	57;
	26	:	79;
	27	:	EE;
	28	:	11;
	29	:	1B;
	30	:	2C;
	31	:	39;
	32	:	36;
	33	:	27;
	34	:	13;
	35	:	D0;
	36	:	30;
	37	:	2E;
	38	:	73;
	39	:	42;
	40	:	11;
	41	:	E9;
	42	:	D4;
	43	:	EC;
	44	:	1B;
	45	:	E0;
	46	:	1A;
	47	:	F9;
	48	:	04;
	49	:	09;
	50	:	FF;
	51	:	05;
	52	:	FC;
	53	:	F8;
	54	:	18;
	55	:	16;
	56	:	11;
	57	:	06;
	58	:	F3;
	59	:	09;
	60	:	FF;
	61	:	FF;
	62	:	06;
	63	:	E2;
	64	:	B0;
	65	:	BA;
	66	:	F0;
END;
