WIDTH = 8;
DEPTH = 67;
ADDRESS_RADIX = UNS;
DATA_RADIX = HEX;

CONTENT BEGIN
	0	:	08;
	1	:	08;
	2	:	08;
	3	:	03;
	4	:	10;
	5	:	0C;
	6	:	0E;
	7	:	0E;
	8	:	0D;
	9	:	09;
	10	:	0A;
	11	:	11;
	12	:	04;
	13	:	0D;
	14	:	14;
	15	:	1B;
	16	:	19;
	17	:	14;
	18	:	01;
	19	:	-2A;
	20	:	-30;
	21	:	-20;
	22	:	-24;
	23	:	-6;
	24	:	29;
	25	:	57;
	26	:	79;
	27	:	-12;
	28	:	11;
	29	:	1B;
	30	:	2C;
	31	:	39;
	32	:	36;
	33	:	27;
	34	:	13;
	35	:	-30;
	36	:	30;
	37	:	2E;
	38	:	73;
	39	:	42;
	40	:	11;
	41	:	-17;
	42	:	-2C;
	43	:	-14;
	44	:	1B;
	45	:	-20;
	46	:	1A;
	47	:	-7;
	48	:	04;
	49	:	09;
	50	:	-1;
	51	:	05;
	52	:	-4;
	53	:	-8;
	54	:	18;
	55	:	16;
	56	:	11;
	57	:	06;
	58	:	-D;
	59	:	09;
	60	:	-1;
	61	:	-1;
	62	:	06;
	63	:	-1E;
	64	:	-50;
	65	:	-46;
	66	:	-10;
END;
